<blank>
<s>
</s>
in
of
to
the
a
for
com
on
and
how
is
i
what
s
k@@
d@@
2
s@@
e@@
1
an
t
re@@
e
with
g@@
t@@
n@@
www
p@@
my
o
c@@
youtube
b@@
amp
at
3
al@@
free
's
in@@
m@@
f@@
o@@
'
i@@
ing
y@@
m
v@@
er
w@@
do
4
r@@
5
ed
you
us
c
d
google
u@@
from
de@@
ers
a@@
h@@
l@@
al
new
k
es
u
j@@
an@@
online
ar@@
en@@
x
z@@
b
p
le@@
7
x@@
ro@@
y
or
n
co@@
am@@
er@@
g
ch@@
can
sale
8
st@@
it
download
10
mo@@
6
facebook
games
school
el@@
by
4@@
st
up
line
site
does
ation
as
are
se@@
l
lo@@
on@@
es@@
bank
5@@
man
ca
at@@
home
co
ra@@
con@@
9
ic@@
h
en
la@@
'@@
f
best
to@@
mail
di@@
3@@
as@@
w
ac@@
car@@
8@@
ar
de
2@@
ma@@
ts
is@@
it@@
or@@
one
v
7@@
movie
yahoo
th@@
news
li@@
me@@
un@@
ic
ad@@
county
tv
6@@
r
bo@@
net
ab@@
get
ti@@
ho@@
2012
sp@@
z
city
ia
9@@
video
house
login
time
be@@
he@@
texas
dr
mar@@
ne@@
car
po@@
ri@@
ha@@
windows
where
vi@@
ine
me
my@@
do@@
ny
el
pro@@
day
ford
be
go@@
j
ma
te@@
man@@
ton
that
when
ds
all
game
state
go
per@@
pe@@
your
uk
0@@
se
la
ate
make
long
le
son
who
ke@@
em@@
bar@@
no@@
code
ed@@
red
phone
sh@@
us@@
air
water
black
ur@@
ly
vs
book
center
town
song
not
tr@@
world
care
old
ta@@
ag@@
ap@@
card
org
log
th
out
so@@
si@@
12
ch
pa
2013
craigslist
tx
we@@
have
am
health
gmail
land
il@@
ter@@
ul@@
1@@
live
high
il
list
ga
park
19@@
jobs
number
ver@@
par@@
fl
road
um
va
et@@
web
wood
bu@@
mon@@
weather
mer@@
india
king
bi@@
har@@
id@@
west
cor@@
no
for@@
service
what's
word
about
ec@@
id
star
why
sa@@
ps
email
ks
south
way
ex@@
ms
songs
ville
work
11
av@@
movies
ak@@
ph@@
ber@@
ing@@
store
buy
kids
ko@@
au
university
ations
life
office
use
white
q@@
ie
mc@@
ge@@
music
20
mobile
10@@
ir@@
up@@
0
im@@
ley
dis@@
box
ohio
hi@@
watch
pictures
san
ve@@
2014
pre@@
top
ep@@
ant
street
ba@@
2015
sex
blue
hotel
gu@@
videos
ion
used
age
ter
op@@
map
br@@
beach
show
girl
00
ent
price
ve
18@@
da
ol@@
ke
qu@@
north
les
gi@@
club
est@@
min@@
art
name
board
ut@@
um@@
good
college
able
jo@@
food
back
set
play
bur@@
if
40@@
ting
auto
florida
ons
war@@
15
tra@@
nc
girls
first
30
12@@
and@@
su@@
test
pa@@
als
30@@
was
ta
hair
et
ac
year
sha@@
power
usa
full
pen@@
near
ty
ment
can@@
cal@@
ding
os
est
ies
mor@@
14@@
ur
job
y's
canada
restaurant
light
ted
nj
13
american
ity
te
ana
16
john
real
14
ah
tax
lake
homes
lin@@
cl@@
people
pi@@
australia
field
dr@@
vo@@
80@@
ian
na@@
her@@
20@@
16@@
ya
will
50
sk@@
services
ci@@
women
ca@@
much
ins
com@@
ne
na
gov
images
family
ist
au@@
lyrics
ni@@
credit
cr@@
view
gra@@
baby
der
ated
sal@@
side
13@@
ka
mo
gar@@
christmas
fi@@
company
50@@
ls
gh@@
ard
hot
business
dog
inter@@
love
dy
search
sch@@
mp@@
15@@
ics
change
der@@
tor@@
ance
win@@
ster
did
drive
fire
many
fl@@
2011
system
ator
parts
ent@@
gr@@
insurance
mi
ir
sports
form
60@@
pro
hp
pl@@
iphone
18
40
ig@@
wi@@
17@@
wa
mal@@
mat@@
post
recipe
den@@
big
ff@@
ang@@
ary
da@@
green
bre@@
hotmail
hospital
air@@
cre@@
centre
shop
ct
find
sc
which
00@@
address
ina
tion
http
sa
after
indian
sign
episode
bar
ass@@
ice
ten@@
amazon
sw@@
pan@@
samsung
rd
bel@@
head
tri@@
english
90@@
review
uc@@
sun@@
church
off
mi@@
wa@@
its
di
pr@@
between
group
body
port
definition
du@@
recipes
33@@
tions
season
ey
football
low
70@@
pat@@
ad
re
100
ill
24@@
all@@
per
ans
men@@
national
25@@
medical
ings
ste@@
ty@@
don@@
ash@@
ge
ay@@
ill@@
photo
ave
bro@@
25
ves
super
24
wal@@
ja@@
key
oil
model
pri@@
york
men
ys
kar@@
page
22@@
sub@@
col@@
times
q
mu@@
ker
bs
ebay
down
hotels
size
ser@@
17
super@@
om@@
ham
26@@
ban@@
des@@
28@@
out@@
ant@@
gas
bl@@
ff
tube
open
pc
led
78@@
photos
california
ous
ors
bra@@
des
ner
like
ite
fe@@
che@@
books
ven@@
account
ters
microsoft
cars
ft
gold
bal@@
bay
str@@
fin@@
take
over
fre@@
pal@@
court
2016
place
2010
point
women's
45@@
cat@@
downloads
mac@@
char@@
postcode
estate
ken@@
cy@@
hol@@
management
history
ev@@
tree
picture
tu@@
little
un
oo@@
36@@
md
reviews
ang
has
ra
27@@
radio
mart
las
mp3
island
minecraft
cheap
gen@@
plus
rent
law
21
computer
bed
del@@
made
internet
cur@@
area
check
ws
linkedin
san@@
sen@@
oh
lat
fa@@
file
torrent
tor
22
han@@
class
hill
cost
je@@
fort
child
maps
market
ak
stone
e's
mil@@
sam@@
ub@@
hindi
the@@
hand@@
golf
red@@
els
data
pay
far@@
ha
max
paper
ud@@
ns
ip@@
ru@@
ben@@
ky
tro@@
mean
children
color
ger@@
cro@@
fish
wi
23@@
boy
tn
00000
math
lu@@
29@@
fo@@
ster@@
hy@@
country
hu@@
2017
55@@
ler
ker@@
ver
yo@@
america
sales
face
washington
non
wedding
mark
porn
london
design
software
val@@
ash
ga@@
war
ess
channel
table
east
ob@@
we
schools
cards
program
pe
log@@
this
ating
ical
19
wal
tt@@
35@@
screen
hor@@
ou@@
ger
hd
meaning
ka@@
ath@@
shoes
results
za
ial
gro@@
rec@@
lottery
az@@
men's
date
ss@@
more
bor@@
weight
network
cam@@
ure
valley
pdf
rock
worth
ars
99@@
vis@@
honda
gl@@
star@@
den
tur@@
works
ry
ball
ran@@
west@@
start
ck
60
nor@@
player
security
today
case
hi
pp@@
34@@
ce@@
michael
80
fr@@
water@@
need
gs
ded
son@@
van
public
ell@@
banking
ther@@
ki
union
houston
ju@@
money
night
bus
using
room
part
ments
tre@@
ale
link
apple
well
ative
bon@@
under
mn
ens
ell
ham@@
inc
comp@@
restaurants
walmart
there
codes
ki@@
support
ab
property
help
auto@@
cap@@
pizza
pages
glass
schedule
grand
united
travel
ence
fer@@
license
now
party
32
bc
truck
mas@@
river
cool
control
tech
dy@@
os@@
stores
mm
ug@@
new@@
manual
res@@
ber
wall
sho@@
end
ise
driver
international
image
mag@@
ot@@
ates
cat
ton@@
web@@
series
dar@@
training
70
head@@
az
let
two
social
97@@
que
pic@@
quotes
aol
77@@
wh@@
dc
cu@@
community
furniture
central
kin@@
ast@@
ut
info
access
ray
ly@@
44@@
cas@@
iz@@
film
chevy
af@@
ric@@
difference
https
airport
plan
gal@@
fun@@
inn
department
dress
hand
sun
information
most
rate
express
over@@
shi@@
education
into
chicago
o'@@
fil@@
mel@@
dance
burg
ram@@
ce
team
call
sm@@
result
type
ah@@
michigan
los
should
contact
sto@@
tan@@
location
ba
eg@@
hel@@
ds@@
med@@
ita
farm
ble
hum@@
por@@
cover
motor
home@@
ss
rental
trans@@
don
bb@@
james
sur@@
ry@@
gun
chicken
ica
server
clo@@
cc
door
repair
net@@
stock
mid@@
ai
application
disney
65@@
msn
swe@@
guide
prices
teen
sol@@
grade
blood
electric
small
front
mer
cake
brown
train
pu@@
sy@@
cho@@
ney
dor@@
green@@
ind@@
act
pet@@
bill
tickets
engine
ri
win
so
report
ness
last
ja
she@@
bat@@
direct
95@@
may@@
media
ts@@
galaxy
ren@@
ism
hall
lam@@
wireless
cell
cut
gam@@
woman
station
ning
connect
gre@@
building
23
numbers
ory
75@@
heart
ats
government
ari@@
les@@
vegas
pres@@
ue
28
letter
ire
bri@@
dra@@
boo@@
david
pics
under@@
fire@@
chi@@
mini
don't
edu
wear
ay
daily
right
story
85@@
ontario
ture
64@@
garden
ex
90
cc@@
hours
pre
eng@@
pin@@
hal@@
ach@@
excel
wor@@
portal
see
silver
sion
ved
by@@
post@@
ston
y'
van@@
tw@@
project
ade
26
cen@@
fox
art@@
88@@
great
app
young
ny@@
ages
lat@@
working
ship
kit
lan@@
bad
ents
science
look
toyota
sport
bridge
imp@@
georgia
em
run
ities
mt
ong
animal
wood@@
cer@@
uni@@
he
website
houses
style
mon
res
url
cla@@
flight
force
indiana
bbc
australian
end@@
print
dallas
space
37@@
ms@@
bury
land@@
ants
death
ine@@
2008
ile
ps@@
george
level
police
ish
ee
ish@@
cross
days
ust@@
paul
ala
tel@@
38@@
cream
band
battery
track
sky
dun@@
miami
ti
bas@@
bike
put
colorado
a's
latest
ick
sea
94@@
tamil
install
bul@@
tic
pool
free@@
bo
smith
through
stop
ore
equ@@
menu
pay@@
27
wiki
eye
chan@@
boys
learning
dia
66@@
names
twitter
ear@@
ick@@
theatre
any
ast
apartments
ders
hon@@
hard
29
sil@@
wil@@
ition
ally
energy
virginia
holiday
dri@@
boat
district
may
sel@@
cle@@
smart
illinois
birthday
coast
outlook
kno@@
basketball
lee
ines
clothing
35
shar@@
200
horse
craft
ans@@
tar@@
dogs
zip
hoo@@
orange
ads
vin@@
2007
tal@@
gen
jet
machine
chase
master
cancer
without
vel@@
kal@@
ino
zone
short
verizon
ko
98@@
gt
bit
ideas
children's
ery
speed
64
ati@@
benefits
foot
zz@@
order
calendar
her
western
sand@@
words
ring
micro@@
er's
shot
31
student
bi
ling
ltd
sheet
score
bab@@
airlines
skin
tt
things
sar@@
years
back@@
cel@@
power@@
share
chart
dan@@
santa
kitchen
sed
chrome
sn@@
tive
financial
500
cab@@
capital
royal
ena
mountain
falls
camera
pain
value
oc@@
commercial
phoenix
xbox
ass
block
ada
aw@@
bing
coupons
army
dan
companies
ama
french
christ@@
45
hun@@
can't
att
din@@
sydney
less
soccer
100@@
atlanta
ani
text
ane
i'm
avenue
ku@@
shirt
library
flo@@
pet
ya@@
driving
ington
bird
rentals
ai@@
nat@@
mus@@
theater
low@@
paint
easy
add
funeral
ji
bla@@
ses
d's
products
hair@@
tic@@
phones
they
sc@@
99
34
know
mary
systems
cup
pur@@
week
ze
ram
sco@@
local
ano
168
rac@@
general
update
federal
won't
different
rose
app@@
die
forest
off@@
ek
gate
tam@@
black@@
48@@
a'
living
ik
melbourne
sexy
trailer
tom
io
ck@@
fair@@
bun@@
ys@@
clip
ble@@
fi
laptop
thomas
just
cin@@
oregon
but
dodge
christian
mir@@
ess@@
pul@@
300
ack
nursing
kel@@
len@@
real@@
sli@@
lit@@
cli@@
healthcare
68@@
ized
anti
course
nyc
dur@@
anti@@
distance
cri@@
square
carolina
d'@@
digital
safety
chinese
manager
jackson
ow@@
wife
dro@@
bag
pokemon
ving
var@@
eth@@
clar@@
mis@@
ette
mall
fast
development
jam@@
197@@
sony
define
iowa
key@@
ella
fall
47@@
ll
tun@@
360
mes
95
cul@@
era
plant
kes
ze@@
our
delhi
tors
cricket
toronto
metal
33
250
gb
ski
webmail
e'
ful
play@@
duc@@
pass
creek
han
2000
mount
192
stra@@
kers
sou@@
bil@@
league
boston
sl@@
sql
kat@@
coupon
own
ap
happy
facts
anda
lock
pressure
drug
fac@@
spring
pack
problems
africa
mac
create
bit@@
shopping
human
shirts
ned
logy
mur@@
sta@@
pol@@
ize
ron@@
only
lights
customer
china
bible
lar@@
hat@@
kan@@
ata
build
stor@@
louis
fit
construction
locations
error
come
ara
cher
clinic
technology
wheel
alabama
ace
self
steel
fm
ement
66
dental
springs
36
has@@
ese
inch
press
lor@@
ung
aa
ath
wing
natural
lon@@
ward
ison
spec@@
trade
main
ner@@
their
sound
mg
sor@@
dale
academy
198@@
und@@
im
stat@@
39
calculator
wn
current
resort
38
robert
mad@@
depot
stri@@
pun@@
want
wat@@
ok
cause
gri@@
s'
nar@@
thro@@
gan
remove
flower
away
effects
ez
sites
born
exchange
events
coffee
making
2003
wells
supply
ying
ali
indi@@
say
fair
dell
tim@@
ep
trac@@
ach
exam
bmw
pel@@
ches
victoria
touch
austin
ways
55
mr
jewelry
ist@@
pes
sher@@
seattle
fan
acc@@
study
exp@@
than
camp
files
800
bis@@
med
states
ann
forms
jersey
vil@@
lie
jen@@
2006
amp@@
snow
hills
fuel
pot
ked
secret
global
uk@@
action
doctor
row
75
ol
cable
46@@
malaysia
nic
friends
therapy
stic
ack@@
cartoon
pla@@
lane
transfer
flash
status
flights
mom
lands
loan
dvd
cs@@
private
ef@@
lowe's
tire
sin@@
cast
150
gift
village
ro
icd
sky@@
nie
lab
mc
turn
tool
ology
nissan
custom
funny
sions
fla@@
01
disease
williams
summer
lot
reading
person
during
tit@@
mit@@
antonio
replacement
ide
walk
cit@@
berry
fit@@
ll@@
ute
plan@@
wikipedia
ph
shops
treatment
ini
base
nsw
north@@
research
met@@
printer
cir@@
pt
42
gg@@
37
44
ks@@
core
ment@@
fix
pra@@
ye@@
anna
sey
nude
hen@@
pas@@
explorer
rock@@
2009
nu@@
solutions
talk
pop
his
tour
76@@
pump
pic
nokia
comm@@
via
loc@@
sav@@
3d
edition
jr
medi@@
fun
cour@@
standard
hr@@
mand@@
wide
fishing
boots
wire
lines
fri@@
ot
kin
sup@@
que@@
discount
dead
mumbai
prin@@
ups
special
equipment
del
fly
ets
dies
bb
itch
earth
sis
39@@
pap@@
high@@
fargo
gear
cam
bou@@
password
ii
halloween
cs
storage
one@@
gun@@
2005
ireland
work@@
if@@
zer
whit@@
berg
fe
toys
cleveland
hai
gi
final
fol@@
ization
drivers
symptoms
target
196@@
dec@@
itis
canon
canadian
newspaper
diego
cm
ils
programs
jan@@
planet
day@@
mp
homepage
association
nfl
average
it's
surgery
fc
would
cd
ox@@
version
pos@@
syn@@
dragon
pink
race
11@@
southern
loo@@
tra
ip
mic@@
hot@@
yellow
jones
tu
mexico
arizona
double
large
sd
000
before
ational
fu@@
ron
58@@
female
god
lego
49@@
ku
chat
engineering
ris@@
ipad
cape
pub
safe
unit
clean
medicine
goo@@
classic
magazine
plans
wars
ado@@
sti@@
kil@@
questions
gay
2004
maker
zo@@
47
taylor
vision
ura
pin
ali@@
ators
fle@@
gil@@
angeles
bad@@
sts
max@@
domin@@
racing
colour
big@@
middle
wild
radi@@
jack
military
wheels
blo@@
mes@@
studio
wine
blog
clipart
kan
logo
xxx
meter
jo
41
cum@@
bra
foods
records
ado
mass
income
book@@
dollar
wisconsin
snow@@
shows
iron
diesel
wel@@
practice
tional
career
orlando
teacher
ene
record
answers
payment
dd@@
being
dig@@
printable
fitness
fashion
multi@@
stand
tools
cheese
phil@@
housing
jer@@
asia
three
match
sugar
elementary
term
some
ridge
sat@@
suit
user
ware
gers
sburg
sample
fs
pass@@
cra@@
dark
window
mont
html
bio@@
baseball
android
motorcycle
cub@@
spa
careers
try
cruise
ate@@
british
non@@
step
got
bell@@
coun@@
ium
audio
wr@@
left
ticket
going
charles
dic@@
bay@@
stream
lady
winter
spo@@
dal@@
moon
famous
dry
floor
maryland
eat
mun@@
ming
language
bell
examples
ever
places
guard
lin
ling@@
dresses
inf@@
temp@@
crossword
someone
kh@@
nav@@
round
south@@
voice
ci
convert
employment
edge
johnson
switch
nz
aff@@
ners
bath
japanese
types
title
ela
iss@@
espn
oper@@
william
pac@@
same
port@@
are@@
chocolate
tion@@
ati
ok@@
called
1st
diamond
hs
ame
cook
finance
lincoln
tab@@
ites
coo@@
87@@
visa
navy
tin@@
ari
nas@@
ky@@
good@@
ten
around
ub
ure@@
lo
ww@@
ink
adult
england
official
setup
second
tab
flowers
delta
effect
hr
july
abc
hard@@
tex@@
running
spanish
missouri
pho@@
vers
mercedes
forum
example
bangalore
anne
read
fel@@
li
break
dam@@
filter
golden
wy@@
sul@@
scar@@
si
ax@@
poly@@
sh
designs
bags
mother
haz@@
active
ght
roll
thor@@
cu
vancouver
va@@
nes@@
other
better
om
pon@@
fran@@
fat
ask
ken
loss
vic@@
factory
mix
policy
arch@@
ani@@
plants
cham@@
cb@@
gta
att@@
hay@@
dish
xp
tires
rates
gur@@
wo@@
gor@@
reg@@
june
ix
writing
five
scre@@
four
cafe
nh
pick
mou@@
gan@@
350
coming
ket
irs
camp@@
ids
bak@@
yard
ml
saw
clothes
original
stro@@
sville
ground
were
vers@@
trust
ann@@
getting
run@@
supplies
ships
tattoo
stick
council
tank
brook
far
serial
usb
chris
quote
ni
attorney
queen
limited
101
oak
mortgage
pharmacy
professional
poo@@
ball@@
vo
fir@@
dou@@
performance
feet
motor@@
2002
charge
smo@@
ase
give
decor@@
nick
lia
gol@@
flow
tail
catholic
nam@@
thing
multi
kansas
temperature
vi
diet
lic@@
king@@
borough
io@@
deals
trip
salary
ged
april
martin
columbia
aya
ich
shire
opening
nit@@
guitar
43
kins
ability
48
wayne
tum@@
product
fal@@
society
italian
daughter
fied
quest
netflix
ush@@
bob
spider
maine
tell
very
cal
magic
brisbane
pain@@
columbus
problem
northern
function
torrents
rel@@
365
boro
ua
bha@@
tea
ano@@
verse
connec@@
festival
saint
du
brit@@
source
birth
oklahoma
bowl
aid
jet@@
gy@@
courses
mouth
president
rv
kir@@
diagram
luc@@
rewards
vol@@
charlotte
add@@
institute
registration
cloud
ures
ular
rain
load
palm
seat
ester
spar@@
kid@@
vis
obituary
stories
pregnancy
remo@@
mas
remote
process
draw
pinterest
adobe
lif@@
open@@
half
pad
richmond
fare
ek@@
asp@@
miles
wallpaper
next
su
bag@@
perth
cross@@
sus@@
ful@@
francisco
sive
hip
mike
bread
195@@
ult
john's
tru@@
dat@@
organ@@
bear
denver
hero
aries
doors
obama
hop
pil@@
che
jeep
appro@@
sons
ji@@
theme
still
nba
album
tennessee
rules
grove
ier
igh@@
form@@
plastic
mb
write
background
ces
hill@@
castle
eve
telugu
casino
properties
sen
chair
tele@@
louisiana
outdoor
brain
won
scott
coloring
bac@@
house@@
pal
bir@@
val
accident
employee
converter
been
mul@@
gray
common
sweet
metro
32@@
ov@@
ices
emp@@
total
wol@@
singapore
forecast
mouse
67@@
flor@@
true
monster
joe
blu@@
solar
cleaning
icks
ugh
pper
gas@@
rit@@
section
chapter
sig@@
lawn
instagram
flat
2001
llc
cut@@
gat@@
german
master@@
leather
ona
way@@
java
african
akes
trucks
return
close
shower
vintage
range
con
burn
classes
98
ula
hat
kets
guy
sam
cash
princess
jesus
read@@
chron@@
jar@@
plate
lt
apartment
interview
jay
cp@@
sets
gener@@
question
kes@@
personal
friday
lg
ements
mcdonald's
note
nic@@
inger
mission
lot@@
send
jacksonville
xi@@
sum@@
fication
ft@@
early
rings
smart@@
analysis
itunes
sp
iting
deal
certificate
frame
wwe
apps
urs
dre@@
1000
tel
mix@@
pit@@
woo@@
kings
def@@
exc@@
parks
65
dv@@
miss
keep
break@@
und
another
spe@@
nike
chennai
bean
fight
kam@@
nan@@
shooting
legal
speech
wifi
stown
joseph
bus@@
mond
ards
episodes
lev@@
colors
journal
sab@@
dow@@
pregnant
ging
collection
single
boards
morgan
activities
them
squ@@
tile
connection
zi@@
mapquest
virus
46
ever@@
points
leg@@
ping
lord
act@@
ances
hawaii
minnesota
tho@@
py@@
pot@@
ey@@
delivery
inv@@
peter
pie
too
shel@@
cases
bet@@
chain
primary
wv
position
vin
learn
cold
vent@@
directions
holidays
tran@@
nc@@
speci@@
brand
requirements
57@@
transmission
index
ple@@
glo@@
release
animals
coach
anc@@
tec
speed@@
chi
dev@@
photography
stay
grill
models
dealer
movi@@
ams
tom@@
cast@@
kar
bol@@
simple
hub
dle
stars
mann
template
gie
breast
rs
band@@
rice
400
desktop
quality
ipod
beauty
utah
rear
highway
patient
toy
gon@@
france
qui@@
pping
philadelphia
mini@@
testing
yer
buffalo
brothers
sell
gue
bull
ges
tle
cou@@
you@@
har
hockey
ences
itu@@
hydro@@
found
tas@@
chand@@
vir@@
rob@@
itch@@
mod
memorial
hold
neck
pur
photo@@
arts
pittsburgh
acid
tie
dream
eyes
jcpenney
lum@@
simp@@
cha@@
jack@@
part@@
tumblr
hire
pok
parking
chat@@
replace
down@@
corp
mental
97
1999
civil
dictionary
gla@@
signs
hus@@
candy
let@@
sing
ties
grey
idi@@
hd@@
graph
roy@@
49
ld
causes
wan
ums
fla
mart@@
blue@@
elle
wholesale
arkansas
123
she
dealers
ho
ool
mega
structure
resources
lost
conference
glen@@
hil@@
yan@@
mill@@
long@@
father
rub@@
ility
theory
96
resi@@
jun@@
students
died
struc@@
ency
man's
survey
catalog
tracking
bt
pm
yamaha
harry
kelly
egg
accommodation
izer
ami
ori@@
ib@@
doc@@
realty
nm
auction
ef
glasses
friend
88
march
comcast
acy
mail@@
grand@@
kim
angel@@
finder
direc@@
beautiful
tures
khan
sr@@
cakes
vic
senior
rain@@
ola
iti@@
93
inst@@
chin@@
lets
watch@@
contract
travel@@
lift
pipe
brad@@
cru@@
hin@@
dates
zy@@
move
iti
ining
bin@@
rail
month
tag
atic
jay@@
brother
ser
world@@
ones
bass
63
marriage
anime
met
register
eagle
lis
vari@@
hollywood
haw@@
od@@
due
spr@@
sauce
pad@@
corn
marine
doll
dot
ocean
battle
collec@@
cardi@@
dol@@
laws
show@@
calgary
format
bed@@
stock@@
aring
get@@
turkey
belt
bc@@
rc
justin
sting
pants
pop@@
looking
owner
reports
94
save
route
boot
gh
fan@@
junior
cannot
had
crystal
message
road@@
against
oz
marketing
tal
acks
marriott
delete
tain
scale
rooms
drop
ching
birds
91
warehouse
asian
wheel@@
bee
sub
andre@@
dist@@
milk
population
ero
tv@@
enc@@
gardens
medicare
cap
gran@@
trader
kid
garage
homemade
ination
associates
stage
electrical
americ@@
brake
ie@@
tips
sing@@
fro@@
spray
soft
stan@@
wave
spot
manchester
physical
shield
fedex
2nd
ross
goods
pattern
bow@@
ik@@
storm
cell@@
lou@@
ink@@
our@@
shut@@
pennsylvania
calories
painting
lip
ight
pine
nb
naked
character
extension
shore
proof
chil@@
richard
modern
hole
avi@@
php
scene
ills
duty
translate
cy
salt
agency
ira
tes
ride
notes
event
2018
ision
hur@@
asi
mal
fa
rights
ago
jan
virgin
ml@@
display
fur@@
300@@
ard@@
sleep
on'
doctors
shor@@
tower
aire
geo@@
downlo@@
any@@
pacific
61
rou@@
copy
ste
agent
sof@@
paris
bow
detroit
cup@@
night@@
scra@@
related
heat
pr
vehicle
memory
ised
pag@@
sand
02
cara
tours
staff
fresh
bone
ere
shell
ening
artist
itation
gmc
entertainment
cher@@
boss
ladies
law@@
ual
logist
macy's
vc
prime
nel
steve
motors
madison
vas@@
removal
ben
accessories
kohl's
massage
wash
cool@@
roof
tub@@
bert
formula
degree
tables
morning
tap@@
tablet
ped
montreal
mari@@
bel
af
fund
instructions
rap@@
lower
franklin
kick@@
statistics
on's
jac@@
brow@@
blvd
abil@@
springfield
assessment
tractor
mol@@
tampa
apply
pract@@
elling
une
conver@@
etic
vista
paid
gg
rup@@
piece
po
runner
choice
museum
while
bedroom
ide@@
leton
tis
exercise
yl@@
an's
hub@@
box@@
sunday
styles
ring@@
ples
gifts
based
cus
ain@@
idaho
ution
boy@@
77
92
thy
ye
arms
conversion
logon
southwest
kia
pi
alo@@
member
doesn't
96@@
angel
ready
bour@@
portland
fy
jennifer
eu@@
wers
quiz
chem@@
foundation
covers
banks
keyboard
ns@@
aqu@@
december
mill
interest
lumia
job@@
85
hilton
ero@@
vit@@
mode
gall@@
guns
stre@@
lotto
temple
happ@@
flash@@
nap@@
54
dent@@
prince
aga
uses
ious
ions
loans
td
fat@@
bud@@
neuro@@
orleans
john@@
koh@@
ther
rat@@
muscle
century
tow@@
protection
fee
syndrome
edic
ligh@@
popular
tests
metro@@
illa
whe@@
scores
produc@@
l'@@
ists
yers
wind
japan
article
fruit
chemical
jur@@
labor
mam@@
kle
october
uma
greek
cooking
yo
salon
gs@@
compare
oral
trail
hunter
sty
sim@@
cop@@
200@@
gram
rus@@
powerpoint
son's
special@@
meat
ank
makeup
ting@@
lodge
specs
vacation
traffic
river@@
button
deep
rescue
regi@@
cr
til@@
dge
qld
esp@@
sheets
every
shoe
logical
addic@@
flag
const@@
nation@@
sty@@
fast@@
surface
piano
cats
having
dept
tee
babies
actor
patterns
sla@@
nagar
lyn@@
ater
iser
alcohol
dj
cau@@
beer
clear
nation
hamilton
tag@@
sims
phar@@
rent@@
installation
universal
kr@@
ache
fon@@
crit@@
shipping
hour
tc
bush
quick
kur@@
trees
puppies
railway
mb@@
int
obituaries
division
marks
blan@@
enterprise
orig@@
ender
ler@@
peter@@
indonesia
dos
industrial
daddy
elizabeth
barbie
hyderabad
itude
birmingham
booking
aks
ford@@
gets
bron@@
circle
balance
07
cinema
lim@@
wick
vw
tte
sears
alan
put@@
boats
1998
married
gle
lic
wolf
recovery
inside
consul@@
fox@@
ader
fuck
mario
male
login'
bal
mar
micro
dmv
mod@@
wit@@
lakes
sau@@
sy
xl
liv@@
papa
cos
cular
lighting
concrete
crash
fantasy
future
translation
cos@@
kill
heights
templates
chevrolet
sunny
aa@@
kas@@
indianapolis
lan
hang@@
bin
means
imag@@
ander
patch
kentucky
tz
bet
ranch
hul@@
hyundai
films
diagno@@
dom
03
colle@@
mah
81
mid
multiple
aj@@
kind
84
ables
veter@@
you're
pack@@
stick@@
ths
bars
lesson
las@@
56@@
math@@
ray@@
statement
grass
teaching
kie
tim
italy
princi@@
sam's
suite
foot@@
liverpool
calcul@@
51
ultimate
satellite
op
planning
roo@@
reset
body@@
nutrition
lose
licence
six
taxes
groups
cd@@
drawing
corporate
ven
letters
nau@@
disc
zero
setting
cycle
gal
telephone
fax
nd
soci@@
designer
length
cleaner
cock
pg
rose@@
bang
awards
kindle
sec@@
settings
downtown
sel
hl
available
atory
role
prepar@@
plug
actress
ports
top@@
industry
pric@@
scott@@
appl@@
health@@
ila
nurse
drugs
answer
parents
dub@@
hit@@
hes@@
brooklyn
playing
bes
ely
sound@@
oma
breakfast
spir@@
valve
henry
brian
players
builder
charger
vacuum
pron@@
locker
purchase
mississippi
maths
tennis
kit@@
election
wind@@
ax
thi@@
profile
es'
sbi
apa
en's
allen
pound
clubs
quick@@
invest@@
major
accounts
lah
think
treat
reverse
integr@@
fred
dancing
harbor
polit@@
hit
motion
ital@@
bles
sensor
corporation
soup
plat@@
int@@
ui
sens@@
important
host@@
issues
ban
roc@@
miller
ottawa
urban
bath@@
suc@@
rid
keys
waste
philippines
dating
kn@@
tournament
massachusetts
baltimore
vy
mit
russian
lookup
whitepages
gab@@
domino's
scor@@
ez@@
directv
dog@@
transport
1997
haven
train@@
hampton
myers
arm
fic@@
mower
powder
tr
device
ou
direction
lesbian
jacket
nt
roll@@
ryan
weekly
tri
lenovo
rho@@
string
mic
'the
cities
graphy
dad
cute
justice
sters
default
num@@
jordan
pan
bathroom
gm
71
78
ries
nes
ays
sri
hu
resume
dakota
ental
environment
youth
hood
mustang
emergency
nv
healthy
attack
blackberry
df@@
drink
strong
sap
lex
life@@
mach@@
rad@@
list@@
ppers
teens
pickup
pets
cincinnati
command
light@@
pix@@
sim
dil@@
mat
plane
complete
directory
promo
germany
august
root
adapter
blogspot
nut
unemployment
termin@@
too@@
ul
06
stewart
normal
swimming
sure
dra
coat
vet
stephen
ens@@
ancy
din
happens
brand@@
sta
onal
class@@
olympic
cred@@
cho
mazda
disk
tripadvisor
centers
sir@@
sacramento
moun@@
corn@@
forums
cl
wilson
dence
3rd
annual
euro
wis@@
04
jam
kijiji
bluetooth
tour@@
costumes
streaming
52
kel
aster
plac@@
panel
pune
tat@@
athy
bat
adelaide
trailers
edmonton
gang@@
virtual
ino@@
assistant
3000
irish
paul@@
maj@@
lc
wer@@
dg@@
jes@@
fem@@
bank@@
dit
recruitment
cheats
montana
dollars
honey
bio
start@@
kg
moo@@
trump
brun@@
rick
who@@
120
hn@@
ancient
sle@@
ras@@
weeks
bill@@
costume
bot
cand@@
scotland
maintenance
ality
harley
third
aging
alle@@
mine
generator
client
usps
skills
following
monkey
singh
suits
ida
package
08
serv@@
passport
zoo
sit@@
appe@@
jump@@
53
aches
db@@
deere
east@@
articles
hall@@
frozen
clock
clear@@
feed
ops
document
grant
wii
tan
bikes
printing
officer
never
pir@@
sister
nel@@
woods
filing
bia
hyper@@
nex@@
rhy@@
washer
56
symbol
68
solution
lab@@
details
colleges
custom@@
ora
ng
lay
changes
impact
canc@@
brook@@
mania
apo@@
chap@@
72
phys@@
kon@@
liberty
line@@
eno@@
vide@@
baptist
tax@@
stead
trial
amer@@
vity
lers
89
lite
nor
required
period
4th
taking
november
daniel
chic@@
slow
kong
ea
stuff
tang@@
rochester
singer
600
aro@@
purple
mba
ump
pac
easter
kab@@
gover@@
dul@@
instrum@@
cbse
wow
ign
tail@@
eli@@
shark
patrick
etta
lap@@
sharepoint
located
wings
sie
isa
mls
europe
ipl
essi@@
lock@@
anthony
tics
athlet@@
cab
wes@@
suzuki
tattoos
dress@@
juli@@
ont
quar@@
o's
risk
bie
ico
electronic
bond
compet@@
culture
burger
vitamin
oracle
beef
basic
sent@@
could
courts
laser
ign@@
gir@@
deb@@
86
asus
rest
lewis
killed
tucson
spirit
hope
eline
rang@@
ao
iss
diy
bug
factor
office@@
rogers
beau@@
kate
projects
uts
premier
farms
chords
alberta
weed
become
protein
comple@@
walking
tou@@
perfect
panasonic
william@@
mlb
harga
1500
jimmy
emo@@
drama
foo@@
firefox
eria
vel
davis
alli@@
beng@@
reader
vine
kom@@
dah
ae
itive
concert
desk
branch
comedy
lac@@
gallery
cover@@
evol@@
ester@@
fab@@
activity
disability
survi@@
ush
challenge
dubai
cheat
heart@@
iv@@
commerce
dual
inches
time@@
identi@@
amateur
tops
january
62
bau@@
ians
lun@@
cruises
nbc
concep@@
tro
jim
laun@@
ights
moore
abc@@
nings
incre@@
benefit
org@@
description
poems
nab@@
ket@@
outlet
perry
eco@@
anim@@
camping
gp
studies
76
69
moving
lagu
counter
ves@@
aluminum
uck
icon
teachers
medic@@
ranger
bran@@
steam
psycho@@
vacc@@
listen
airline
machines
amar@@
andrew
ering
sep@@
nick@@
ale@@
straight
celebrity
crime
pen
boxes
crack@@
len
jane
jose
news@@
kits
soul
astro@@
each
ear
nova
cott@@
behavior
communication
tech@@
nail
gar
broken
73
jail
sprint
alaska
ising
levels
000@@
trading
maria
coll@@
cock@@
ili@@
offer
antique
swift
pk
director
beat
town@@
nig@@
olympics
cbs
blade
centr@@
flex
world's
miss@@
ps3
focus
criminal
onic
postal
milwaukee
cola
rr
chrysler
giant
mexican
skype
ump@@
arlington
balls
kl@@
amy
commun@@
yoga
eral
fcu
gateway
scan
vinyl
onia
ato@@
bollywood
characters
audi
nett
lancaster
cent@@
mem@@
fill
scope
iso
chec@@
olds
elite
401
yang
manag@@
lauderdale
stress
rise
itors
kk@@
items
caribbean
budget
oak@@
percentage
happened
heroes
rand@@
escape
cran@@
mont@@
claim
lamp
wallpapers
rod
i'@@
dh@@
eta
donald
frank
aco
jud@@
kim@@
theatres
mirror
83
apple@@
cp
salad
school@@
09
eye@@
retail
fest
rep@@
calculate
row@@
says
chester
gin@@
watches
a'@@
ect
veget@@
supple@@
weather@@
best@@
glen
every@@
host
ales
cks
murder
husband
aria
noo@@
21@@
costco
ece
brid@@
doc
gel
retirement
chel@@
eag@@
notruthavailable
him
ects
what@@
cement
hunting
ander@@
sporting
steak
graph@@
ust
here
standing
cav@@
aka
webcam
invent@@
carbon
sports@@
appli@@
fabric
hasnotruth
monroe
t's
125
resorts
technical
cookies
wer
grow
nur@@
leaf
wiring
thai
defense
itions
papers
quil@@
colon@@
salv@@
associ@@
kerala
wap
experi@@
anderson
cali@@
nag@@
graphics
fra@@
strat@@
tool@@
thou@@
gold@@
enger
pig@@
wild@@
antivirus
resource
yl
game@@
lil@@
chief
controller
wards
cuts
whole
y'@@
cnn
treas@@
fiction
tation
tha
elli@@
otic
79
lub@@
scr@@
cemetery
transportation
affect
deer
deck
tiger
ito
5th
accep@@
mattress
positive
cric@@
adidas
poem
ele
walker
colouring
gym
spl@@
fresh@@
nashville
masters
done
values
fam@@
lex@@
admin
vent
rich
eng
router
stron@@
sex@@
bull@@
ris
mono@@
september
see@@
79@@
coolmath
purpose
costa
201@@
subst@@
lip@@
dish@@
gy
crazy
tical
joh@@
thers
adventure
inal
barrel
stein
psy@@
flu@@
ques
extra
worksheets
meet
asa
leave
procedure
backup
analy@@
eur
workers
bloom@@
43@@
esville
quebec
material
nin@@
aux
ici@@
prote@@
automatic
5000
ore@@
fifa
bristol
roblox
allow@@
spac@@
sac@@
stro
heads
suites
f150
hunt
blin@@
bolt
grounds
bh@@
tony
ped@@
goes
rapids
67
flat@@
plaza
slide
bieber
together
surve@@
joint
doo
portable
cooper
just@@
memphis
05
ello
kiss
acti@@
meghan
guidelines
blow
fig@@
builders
meeting
tutorial
dex@@
pl
upper
heater
aged
pounds
marie
eland
smoke
recei@@
psychology
song@@
carri@@
past
peng@@
robin
beat@@
gum
shots
classi@@
itter
advanced
makes
saf@@
spon@@
shre@@
issi@@
graphic
activate
entry
cook@@
bee@@
oes
seed
organization
ull
skin@@
pem@@
perf@@
dent
method
members
discovery
euro@@
ncaa
herald
rene@@
mons
auctions
sea@@
tos
fis@@
fix@@
graduate
ian@@
scrip@@
respon@@
scoo@@
growth
dam
bu
dents
mk@@
cabinet
electronics
rainbow
asis
bend
production
ased
rack
kap@@
bottle
tm
gn@@
steps
nelson
ius
delaware
leone
mel
ential
database
barn
oven
bern@@
reference
phy
interior
leader
hong
ea@@
ferr@@
stand@@
correc@@
bikini
hind@@
ud
select
stadium
biography
jaco@@
08@@
thr@@
easy@@
heritage
websites
eller
cherry
osis
gau@@
leg
rey
pretty
feel
pier@@
yan
cer
liquid
usion
roman
ith@@
sci@@
duck
acle
ht@@
zy
independent
employees
rule
cont@@
charleston
inary
carpet
exper@@
stomach
wrestling
ghost
mobil@@
butter
assi@@
eating
gulf
white@@
ux
aven@@
hardware
issue
ag
villa@@
montgomery
lead
twin
region
oxford
eco
regul@@
d'
regional
001
87
102
ican
gene
fer
nevada
rifle
yu@@
potato
rus
bility
seal
hey
dec
earth@@
assembly
1996
suff@@
ire@@
guru
fine
ultra
bos@@
content
nose
upgrade
gary
clark
tin
request
shi
zealand
blank
script
mercury
wd
scal@@
coin
lloy@@
ials
agents
height
something
cad@@
gang
htc
industries
isation
sterling
increase
illo
cha
links
empire
bands
then
sarah
colours
blower
eggs
shan@@
harv@@
arian
legs
arm@@
hs@@
google@@
typing
dio
cambridge
troy
mother's
fb
ninja
alter@@
fiber
where's
hdfc
aber@@
experience
chor@@
pandora
backpage
oning
modi@@
tape
mens
stones
pure
roger
ician
sett@@
wig@@
built
dentist
adjust@@
television
accounting
figure
nights
shoulder
89@@
fluid
sd@@
pp
corner
separ@@
ited
cedar
oxy@@
warner
puerto
utes
after@@
jas@@
mony
mad
insul@@
semin@@
aer@@
theaters
heating
lexus
lessons
dublin
google'
malayalam
path@@
breaking
ech
yn
visit
veterans
rio
publish@@
doo@@
kart
caravan
ke's
liber@@
alam@@
ress
120@@
nails
fier
rier
lis@@
count
jeans
mature
wash@@
ing'
pumpkin
harvey
scot@@
riding
plays
duction
pped
team@@
kun@@
div@@
economic
tis@@
boxing
adams
first@@
kle@@
kay@@
biz
dge@@
therap@@
newspapers
ice@@
rell
69@@
standards
known
k'
sms
maharashtra
screen@@
dav@@
leon@@
gem@@
buff@@
snap@@
tian
58
jc
hawk
turbo
inspir@@
mah@@
bho@@
solitaire
tural
pou@@
salem
ole
eter
calls
owners
bbq
lawyer
agreement
recogn@@
yourself
abs
kingdom
equi@@
sap@@
rubber
wich
immigration
rating
chili
adi
wed@@
ain
secre@@
republic
edi@@
ampton
adam
february
medication
villa
missing
johnny
pork
today's
zen@@
foreign
airways
million
gin
windsor
silver@@
beyond
barbe@@
bloo@@
thermo@@
sant@@
gc
eric
watchers
raleigh
bladder
blonde
cotton
heavy
swim@@
vag@@
dest@@
arena
53@@
vt
reme@@
lang@@
batman
sf
pussy
iso@@
agu@@
anal
ched
chef
tives
yu
kevin
deal@@
sv@@
unlock
sham@@
hands
taxi
mind
82
kent
wall@@
fall@@
ify
buck@@
eastern
well@@
divorce
joy
lam
chest
flam@@
marijuana
influ@@
tribune
cells
behind
hairstyles
beds
of@@
mers
ley@@
atlantic
vac@@
rich@@
thom@@
pus
frac@@
agar
gif
ppt
nia
paypal
steven
kick
whis@@
aton
mitsubishi
beth@@
lease
blu
pos
phil
ald
essay
internal
environmental
than@@
suicide
ition@@
cookie
aspx
distribution
aud@@
silverado
replac@@
54@@
mag
ws@@
temporary
ital
pole
clinton
drop@@
cox
tm@@
libr@@
59@@
dinner
bakery
youtube'
applications
finger
stry
adap@@
vor
upon
domain
ffs
pbs
billy
atten@@
ios
matt
hack
dave
esa
boyfriend
seats
boun@@
fr
ation@@
patri@@
stop@@
subaru
ected
synonym
lear@@
ich@@
girlfriend
pit
holy
commission
mig@@
recor@@
sw
shoot
lawrence
rick@@
author@@
fav@@
operation
dick
develop@@
spain
laur@@
mechan@@
updates
steph@@
bhar@@
tb
rail@@
horses
chairs
cket
iler
holland
sold
administration
bp
ario
gum@@
arthur
stainless
esh@@
interest@@
barbara
dream@@
sexual
freedom
elli
blackboard
hurricane
summary
dimensions
sted
gress
font
exten@@
knight
kra@@
110
guil@@
knee
marathi
puzzle
roy
angry
lisa
ls@@
border
photoshop
aded
native
shaw
ends
wel
ered
nd@@
fuc@@
tar
tery
tes@@
wooden
revenue
cles
path
fet@@
louisville
starter
certification
stam@@
84@@
volume
ner's
nadu
davidson
74
creative
mob@@
jor@@
cott
spi@@
mole@@
markets
nov@@
greg@@
gly@@
ec
172
advantages
beli@@
hero@@
vals
anie
kolkata
crown
protec@@
vale
dres@@
starting
rug@@
ion@@
fed
hwy
tonight
fications
pearl
rol@@
measure@@
campus
countries
imdb
pakistan
crew
mrs
teen@@
recent
omaha
sket@@
potter
monitor
eva
gps
diabetes
sonic
walgreens
mack@@
documents
seven
continu@@
mozilla
x'
jewellery
miley
lion
exhaust
myrtle
fees
swim
ter's
meters
carry
generation
xy
electr@@
fly@@
cia
pc@@
ony
desig@@
creed
pend@@
dani@@
ases
premium
authority
rum@@
albany
rome
elev@@
manufacturers
mu
anth@@
stery
weekend
year's
toshiba
summit
consumer
bright
cure
ession
compon@@
nad@@
welcome
crafts
lunch
fisher
expres@@
minutes
pilot
ses@@
k's
soft@@
dermat@@
zillow
esti@@
drawings
bridal
hart
was@@
person@@
210
paso
advantage
ultr@@
with@@
lb
mington
nell
views
57
check@@
but@@
esses
tex
penguin
danc@@
plumbing
wright
hospitals
charter
ril@@
inclu@@
cheapest
asha
metric
navi@@
ima
700
bent@@
benz
norfolk
greenville
missions
laura
wag@@
4x4
eo
celebr@@
wonder@@
hello
steering
fields
eton
trans
lies
costs
dick@@
clay
eu
59
asing
tured
cess@@
raz@@
fish@@
nam
pav@@
dium
gul@@
dn@@
thanksgiving
civic
detec@@
aus@@
organic
always
225
join
cel
batteries
dining
mak@@
199@@
tia
agricul@@
dj@@
meal
tall
stor
or's
frequ@@
tub
freight
ddy
raj@@
success
tone
click
color@@
who's
parade
stud@@
rhe@@
growing
650
prison
fluor@@
burlington
coast@@
assess@@
collins
nikon
untuk
esh
fake
late
wives
niagara
partners
minute
outside
currency
wise
catering
options
qual@@
winchester
snap
amount
bre
gmail'
thre@@
award
105
materials
poll@@
gad@@
ically
7th
spin@@
cash@@
douglas
gumtree
lec@@
jason
preci@@
epson
crack
worksheet
250@@
christ
canyon
quin@@
frank@@
secure
cameras
dee
provider
wrong
asp
wn@@
needs
eps
isha
written
hidden
aan
tain@@
refrigerator
bulb
uss
administr@@
fron@@
cheap@@
bring
haul
girl@@
arc@@
set@@
800@@
ato
yar@@
74@@
cinemas
cle
registry
isd
bella
usive
infin@@
prof@@
quo@@
gauge
repor@@
payments
closed
jean
viol@@
whatsapp
inte@@
bon
matthew
catalogue
nut@@
prayer
chlor@@
ished
mcdonald
newcastle
ana@@
volvo
tains
uel
driver's
contrac@@
prints
contain@@
canvas
forever
cuc@@
wales
erie
loop
pig
radar
abuse
hari
bryan
mass@@
volkswagen
terms
seeds
connecticut
memor@@
ipp@@
't
bm@@
wee@@
correct
caes@@
trav@@
aero@@
traditional
mate
anno@@
cutting
mileage
nursery
chers
luxury
nebraska
victoria's
chal@@
burning
center@@
sentence
lightning
query
snake
km
mills
neigh@@
ij@@
exam@@
dolph@@
lens
schedules
disney@@
lemon
savings
abad
adults
bail@@
brig@@
ashley
author
oy@@
govt
suppliers
tari@@
kannada
broadway
accoun@@
predic@@
glasgow
shake
lowes
ange
stroke
units
care@@
permit
baked
mm@@
charts
eh@@
ille
karaoke
unk
four@@
jefferson
valent@@
vely
illing
honey@@
gaming
thir@@
attrac@@
engines
ind
puppy
really
creation
edinburgh
egypt
feeding
1993
palace
ago@@
dirt
gia
israel
cros@@
reli@@
some@@
aver
selling
messenger
oc
tial
jump
speaker
captain
sequ@@
tier
ories
kath@@
divi@@
alty
packages
tent@@
halo
draft
grams
ity'
comparison
amazing
cow@@
redi@@
task
wan@@
ily
visual
constitution
cisco
eds
sync
bingo
held
kor@@
lucky
fusion
george@@
raw
sak@@
hra
ood
maxx
sec
michelle
oli@@
foster
kill@@
spell
tant
main@@
gage
500@@
autotrader
dead@@
ceiling
iii
jerry
labour
sr
bump@@
manufacturing
aurora
inde@@
firm
candi@@
claims
clay@@
usage
keith
marshall
vie@@
korea
augh@@
physics
marsh@@
acci@@
scan@@
korean
note@@
supreme
promo@@
liter@@
percent
slo@@
kennedy
nov
township
pow@@
exemp@@
dailymotion
warren
norton
extreme
liner
guys
elec@@
charlie
ador
lake@@
crochet
horse@@
harris
aw
db
fairy
mr@@
circuit
contribu@@
eman
tiles
say@@
xe
russell
juice
wid@@
wrec@@
origin
represent@@
deci@@
realtor
short@@
pirate
naruto
ather@@
minneapolis
eld
ark
bridge@@
elements
ches@@
crip@@
exercises
itor
jag@@
advertising
shut
ssc
rover
conditioner
wanted
ending
clerk
offices
lon
communications
cvs
oh@@
differences
emer@@
ather
projec@@
starbucks
shadow
shorts
dix@@
preschool
residential
hydr@@
caps
parker
gone
tah@@
nhs
strategy
thouse
104
deon
messages
foun@@
pent@@
destin@@
malay@@
shir@@
para
stations
cart
oon
electro@@
categ@@
cord
jeff
trains
gordon
ig
ole@@
heal@@
115@@
mars
pub@@
putlocker
counter@@
aun@@
toilet
strip
tti
gent
victor@@
mary@@
bers
indoor
canad@@
sb
fidelity
minimum
grat@@
owl
recycling
cylinder
kah@@
mia
nature
sper@@
holder
mates
tus@@
plymouth
semi
parent
guar@@
clin@@
dn't
alex
brands
lish@@
sewing
roman@@
ipur
cum
saver
split
ues
eas@@
arrest
caro@@
proxy
ides
restor@@
pony
icals
sg
effici@@
acer
grey@@
tul@@
alia
bid@@
frames
jokes
aar@@
velo@@
bob@@
rout@@
repairs
pd@@
111
begin@@
amc
lauren
craig
grid
talent
desert
intel
career@@
301
ern@@
nw
degrees
knife
pharmac@@
club@@
150@@
l's
ive
portu@@
contacts
sible
iron@@
diff@@
investment
regulations
wis
uter@@
201
islam
ffe
ige
penn
cherokee
banana
computers
medium
iya
hara
dp
conserv@@
text@@
fru@@
fid@@
indic@@
xhamster
near@@
cadillac
defined
historical
rugby
stanley
bottom
definitions
doing
brush
jackets
yes
6th
park@@
birth@@
youn@@
tage
fence
spongebob
dirty
msds
anniversary
dol
vu@@
kay
cold@@
icians
behavi@@
hypo@@
citizens
touch@@
hoe
once
hobb@@
rico
cole
lanka
pradesh
punjabi
dial
months
reserve
angels
fifth
quarter
newark
provi@@
platinum
nels
chiro@@
reason
tary
toledo
dges
dinosa@@
soli@@
orn
kardashian
ee@@
bears
howard
advisor
rust@@
aly@@
tram@@
recommen@@
msn@@
assistance
1994
roof@@
jon
ika
rat
1995
brazil
krist@@
matrix
soap
locks
busin@@
docs
alert
craw@@
thes@@
conditions
davi@@
copper
bt@@
oaks
insert
dm@@
pull
explain
winning
bom@@
spark
sag@@
grace
ems
ight@@
vernon
tulsa
tek
money@@
ae@@
maple
because
pioneer
infection
listings
chemistry
weap@@
courier
stur@@
arab@@
clips
relationship
alpha
condition@@
dows
european
profit
ict
dw@@
posal
games@@
blocked
receive
ettes
oo
competition
dragon@@
linda
bang@@
carnival
portra@@
sore
advis@@
atar
cet
320
responsi@@
hampshire
buying
br
obam@@
mary's
ace@@
christopher
ature
vec@@
osh@@
param@@
mation
idea
liver
boutique
michel@@
sk
scro@@
scanner
wick@@
ming@@
enders
sheriff
hl@@
grande
sfield
iner
viewer
10th
killer
quir@@
tre
enti@@
122
condo
tesco
spelling
campbell
sures
itional
counseling
123@@
cost@@
uti
plain@@
od
earthquake
itches
flags
limit
vietnam
gres@@
prairie
tles
oct
markle
labor@@
spor@@
neys
butter@@
trim
arn@@
edward
warranty
beta
tracker
jewel@@
macy
ones@@
coverage
workout
revolution
katy
dum@@
alpha@@
panama
advance
soldi@@
chapel
homel@@
aters
ferry
ew@@
mile
winnipeg
drinking
kh
choo@@
maha@@
terra
queens
86@@
lace
cent
physi@@
rian
chip
hear@@
arctic
comes
folder
avon
plates
marc
rush
manuals
midd@@
funds
plant@@
lafayette
donna
fut@@
factors
alliance
min
aluminium
cruiser
tomato
lett
present
nn
tas
chelsea
atv
dl
citi
wy
saskat@@
savannah
islands
zu@@
ikea
chur@@
sai
tune
sierra
advertis@@
kidney
studios
stu@@
jar
harris@@
gos@@
aco@@
roast
sport@@
engineer
riverside
wichita
diab@@
xx@@
ignment
tablets
polar
maid
frontier
classifieds
atives
track@@
scrat@@
use@@
veloc@@
nutr@@
ume
orch@@
anatomy
bry@@
tropical
weddings
una
compass
cheer@@
lowe
investig@@
ced
weather'
ett
paradise
susan
cig@@
encing
beck@@
dayton
103
atures
try@@
murray
mesa
roller
ebook
ounce
manufacturer
manhattan
pcs
zombies
clearance
mis
deep@@
orthop@@
vap@@
mask
garh
butterfly
ira@@
showing
radio@@
bruce
brac@@
item
deen
tric@@
yellow@@
pam@@
browser
walkthrough
condos
came
beans
marina
180
ety
scand@@
motorola
chees@@
manga
411
continental
spencer
fc@@
simil@@
pontiac
triple
coordin@@
that's
leadership
discoun@@
mh@@
chan
iors
vb
xnxx
aldo
mut@@
brick
budd@@
punjab
alarm
invol@@
ando
secretary
tata
plo@@
lynn
landing
vou@@
bic@@
restore
zim@@
900
eut@@
largest
histor@@
ator@@
winner
xx
fighter
stamp
hop@@
notice
queensland
spring@@
icle
contractors
newton
noble
tyres
770@@
rolling
washing
muslim
dez
highest
acade@@
tir@@
damage
vodafone
hook
fridge
pogo
cabinets
reserv@@
innov@@
comp
pec@@
curry
pine@@
lil
stret@@
pt@@
bate
label
ulation
poly
worker
gr
nik@@
baba
temper@@
ulu
rt
junction
noise
newport
cellular
endo@@
ity@@
capital@@
voc@@
scary
bear@@
amaz@@
friendly
tiv@@
strike
dna
dis
mechanical
sour@@
i's
ske@@
patients
bru@@
pools
mush@@
truth
aths
willi@@
pick@@
ango
commit@@
wellsfargo
olymp@@
rouge
edo
automotive
ough
greater
speakers
shepherd
alone
classroom
carter
160
old@@
architecture
teeth
grocery
ministry
economy
vampire
consulting
sharp
jamaica
hud@@
chick@@
regular
technologies
ortho@@
63@@
yahoomail
licen@@
heaven
dean
aj
throat
oph@@
av
roads
flex@@
belly
contro@@
will@@
clutch
zoo@@
response
tip
k12
higher
107
iling
trouble
1200
rie
thailand
must
bye
sage
huntington
philips
cloth
meth@@
versus
mware
gee
albuquerque
sat
closing
zombie
oakland
barnes
municip@@
accord
ct@@
sink
turning
shaft
hut
sia
writer
igh
slip
sne@@
zing
entity
bicycle
food@@
mutual
horn
73@@
evil
negative
changed
hentai
timetable
reno
metr@@
bubble
zu
jol@@
phy@@
gene@@
vincent
proph@@
lymp@@
smith@@
oid
andy
planner
shelter
domestic
205
maz@@
francis
breast@@
combin@@
admission
makers
ru
sunshine
oner
please
toe
tacoma
packs
usd
gaz@@
waterloo
age@@
citizen
efs
izing
ning@@
shop@@
natur@@
quis@@
shift
changing
baru
rol
cogn@@
esta
rangers
gest
toysrus
gus
hits
often
essentials
el's
guest
kb@@
hp@@
pocket
renewal
archive
depression
8th
cole@@
130
gram@@
gli@@
chin
independence
moto@@
develo@@
tyler
labs
broker
blow@@
incl@@
dash
0x@@
stra
pumps
timing
enter
wyoming
reasons
animated
eti@@
sleeping
dem
eption
champions
armour
ade@@
kc
volunteer
flying
righ@@
aaa
brew
farmers
ry's
cancel@@
wordpress
rocky
gallon
cf
optim@@
globe
liquor
ln
freeman
cameron
aves
oste@@
cove
offic@@
hats
compressor
scooter
jal@@
600@@
presi@@
singing
ply
blind
symbols
rober@@
60s
atherine
deli@@
bugs
needed
dation
uc
cler@@
cabin
dick's
tsville
polis
1970
troubleshooting
bulk
presentation
formation
inter
political
rolls
flip
fuse
polo
rider
nice
mason
capacity
finding
achiev@@
pep@@
object
sl
friv
padd@@
handle
monday
inspection
pasta
beth
ashes
greet@@
boo
flip@@
volleyball
pand@@
zi
m's
orthopa@@
mats
comfort
volt
older
sarasota
crest
eding
vpn
550
surge@@
shock
scholarship
cleaners
305
econom@@
olive
chess
diseases
skull
chop@@
retri@@
sever@@
fucking
karnataka
everything
ior
secondary
pak
eclipse
marathon
rede@@
yorkshire
morris
butler
holders
axis
procedures
hurst
naples
mere
relay
04@@
worm
actors
bott@@
jon@@
nan
thunder@@
buzz
championship
mother@@
biggest
bub@@
cowboys
both
frog
jc@@
external
bever@@
casserole
ton's
monsters
cf@@
2500
dover
pes@@
failure
estyle
sha
stamps
gian
lol
sin
polaris
crab
impro@@
kelley
stamp@@
mods
pf
minster
qvc
devil
sf@@
ony@@
nicki
sse
warriors
bureau
enter@@
occup@@
rina
desi
god@@
wra@@
meo
thank
cod
bowling
1960
indeed
halifax
pension
linux
auburn
meyer
synonyms
scholar@@
russia
metry
bilt
arch
ante
aller@@
dairy
functions
aving
squir@@
seating
hib@@
ved@@
nucle@@
urine
pill
childcare
seafood
hsbc
contest
gyn
emails
poker
cabela's
garmin
93@@
dock
thesis
permanent
tered
bam@@
stal@@
layout
garden@@
possible
ark@@
search@@
12th
wen@@
them@@
freeze
barre@@
yaho@@
guardian
element
dated
superior
ologist
agencies
ordin@@
tracks
sword
played
panels
couple
need@@
scen@@
flin@@
side@@
cere@@
finish
vor@@
landscape
irctc
1990
hawaiian
oy
ssa
norman
registered
meet@@
forge
vote
foreclo@@
mint
gluten
surrey
america's
hound
us'
features
coral
auth@@
finger@@
sent
wet
sara
gain
arrow
declar@@
shed
ceo
tting
psychi@@
providers
universe
audi@@
bros
sol
cyber
zed
durham
tongue
rite
baker
hay
teenage
strawberry
106
escor@@
rachel
dl@@
mot@@
albert
pear@@
stem
peri@@
walls
employ@@
smoking
view@@
fertil@@
northwest
recy@@
again
ocean@@
unique
oun@@
demo@@
aids
chip@@
stocks
attach@@
explo@@
keeping
o'
vest@@
beyon@@
guit@@
ww
soil
tak
tta
s3
cater@@
gent@@
phd
imper@@
clinics
chuck
bies
wool@@
rever@@
lings
receiver
recommended
fford
kitty
leeds
lists
rabbit
icici
surf@@
executive
sity
servic@@
tiny
dang@@
comic
ema
drum
ebo@@
card@@
itations
rx
jessica
adp
sainsbur@@
hudson
onlin@@
cry@@
disorder
partic@@
convention
microwave
characteristics
fabrics
renaissance
sear@@
operating
medicaid
deposit
distribu@@
aph@@
payroll
neil
col
ceram@@
florence
romantic
bras@@
gl
chen@@
musical
porsche
xy@@
staples
heim
feder@@
ots
citibank
augusta
middle@@
bby
quant@@
trig@@
span@@
refund
skyrim
fresno
mountains
buick
kat
pitch@@
craig@@
skirt
gujarat
launch
daily@@
kawasaki
quarters
famil@@
jazz
terminal
vans
lay@@
discover
poss@@
city@@
embassy
entation
atan
alive
freder@@
weight@@
plug@@
said
facebook'
coal
solid
entrance
sud@@
within
casting
civil@@
poster
mk
sunset
sas@@
installing
secu@@
cpt
signal
coup@@
ribb@@
itz@@
filters
kee
workplace
prest@@
zo
fried
istic
api
dm
vene@@
fairfield
lette
ebay'
inbox
tamil@@
coconut
ow
puri
faith
gation
yam@@
mitchell
tale
118
talking
baz@@
softball
aqua
objec@@
190
assist@@
stics
kau@@
vacancies
surf
manu@@
install@@
nl
lang
legend
users
raj
jab@@
shelf
tut@@
king's
cg
lcd
ane@@
simpson
spec
personalized
1989
gregg
harrison
goal
montr
schem@@
400@@
ingham
penn@@
til
kri@@
checks
condition
toll
215
vu
bli@@
cair@@
pavilion
market@@
cups
roses
must@@
helicop@@
public@@
outs
champion
boost
pud@@
quali@@
tx@@
nicole
kmart
shot@@
technic@@
cyber@@
3g
giving
flow@@
leaves
iv
lion@@
belle
sense
pedia
lement
karen
mea@@
philoso@@
adv@@
240
eddie
sdale
iller
07@@
fayetteville
harbour
ority
bangla@@
neu@@
eli
alex@@
rapid
telstra
teams
diploma
pleasant
curriculum
willow
daycare
crescent
chain@@
clean@@
demand
philip
staffing
fant@@
rehab
peak
lington
nah
lbs
aver@@
eff@@
backgrounds
ju
melissa
injury
genesis
fts
assass@@
xi
laptops
turbo@@
unlimited
guaran@@
dings
icloud
signup
240@@
penny
athe
allo@@
playo@@
pyth@@
monitoring
moor@@
eves
progres@@
amazon'
atta
sphere
dino
steel@@
cultural
kitchen@@
disabled
apt
biology
respir@@
hearing
ttle
enterprises
pedi@@
somer@@
aki
trim@@
lots
intranet
javascript
spokane
catch
warrior
polish
caused
tits
bullet
meas@@
scheduled
living@@
cams
cus@@
console
essa
888
motel
vacations
cyclo@@
pepper
sip
ola@@
aaron
tg@@
apprais@@
survival
pb@@
colored
uro@@
moto
tract
sanc@@
gator
sector
ading
nigeria
sadd@@
ject
bah@@
y8
census
4shared
nancy
ins@@
vac
minist@@
wiki@@
scientific
rin@@
kasi
faces
jig@@
posed
gio
phal@@
tap
model@@
dawn
laser@@
favorite
alien
franc@@
108
derby
nascar
arrested
local@@
poin@@
underground
ria
family@@
pean@@
convertible
ffle
ralph
legacy
ggle
assassin's
ream
spiderman
hugh@@
mcdonalds
bacter@@
tooth
subs@@
adoption
aq
cooker
80s
ente
granite
loading
profess@@
chang@@
sley
rors
candle
jakarta
fbi
ori
poo
ei@@
mez
shri@@
gaon
isi
test@@
bali
clinical
gap
brighton
broadband
gle@@
trin@@
ingredients
prepaid
acare
140@@
scout
refriger@@
nr@@
cep@@
import
ed'
ider
airplane
invitation
phase
little@@
shape
thompson
immun@@
syllabus
cot
750
presidential
evi@@
trick
ter'
mug@@
strength
petersburg
mediafire
ota
connected
certified
camper
employer
trinity
pads
iq
angan
dreams
arthritis
oz@@
edit
rocks
dd
adel@@
nhl
urban@@
upload
magn@@
flooring
frost
milli@@
instruction
phen@@
proto@@
relief
ros@@
yn@@
treatments
arri@@
buildings
1980
syl@@
eno
furn@@
face@@
thal@@
mx
smoo@@
208
compli@@
syracuse
station@@
moines
unc@@
devices
alexander
atric
hack@@
cn
spots
drill
reven@@
khal@@
dye
stats
info@@
uniform
cube
cartoons
ural
iran
millions
unds
sandy
hose
global@@
gymnastics
flea
tons
beet@@
112
angelo
mption
actions
borne
hawks
boise
sign@@
dt
religious
magnetic
carrier
lily
mermaid
503
sboro
techniques
er'
exe
grants
transit
mn@@
flood
blues
wrap
compres@@
hunger
issa
dil
mp4
atom@@
playstation
educational
alber@@
adi@@
goals
pyram@@
gabri@@
capitol
reaction
greatest
decor
holli@@
gospel
conduc@@
trips
dolls
cottage
fici@@
gig@@
kni@@
brown@@
madrid
gay@@
looks
paintings
ree
silhou@@
yana
victorian
dles
maximum
relations
considered
jonathan
sheffield
mobil
spou@@
worc@@
toddler
signature
lions
johns
jaya
oms
gand@@
kai
named
offers
laugh@@
lyn
fighting
rip
wrest@@
movement
access@@
matter
saturday
corvette
parkway
austral@@
ake
tants
athens
izon@@
broad@@
117@@
xfinity
pee
parish
foam
an'
ding@@
fx
mil
webster
ety@@
quest@@
powered
accur@@
bones
ication
occur@@
claire
elephant
achi
eth
calci@@
tourism
aper
moms
drain
entary
kub@@
clue
anything
aux@@
intellig@@
exist@@
202
ric
hiv
folio
bor
highlights
bench
g's
ston@@
pearson
chro@@
leading
livest@@
thy@@
small@@
tanks
sare@@
rajasthan
erals
editor
mccar@@
kha@@
monthly
ctions
appoint@@
dill@@
leen
lexington
cathe@@
vehicles
opt@@
chim@@
todd
ification
dimen@@
450
dryer
1992
terry
cow
programme
taurus
dispen@@
bound
quiz@@
thyroid
gambar
ral
mess@@
gloves
sail@@
nu
selec@@
locked
father's
vend@@
hammer
uni
222
controls
calculation
o'reilly
wellness
bedford
pour
archi@@
900@@
etsy
erc@@
gainesville
baton
estates
canberra
vegetable
casa
race@@
camps
listing
bankruptcy
yor@@
gou@@
kapoor
pat
tina
tam
xvideos
cholesterol
injection
islam@@
religion
psi
parag@@
ied
o2
powerball
reduce
sick
safe@@
reed
module
bes@@
nership
aso@@
utility
extended
leon
ratings
lton
mater@@
mickey
ith
capit@@
dx
latin
inks
rust
contractor
effective
mos
dc@@
wax
opar@@
mercy
partner
tor's
rar
regar@@
calling
estab@@
advice
hell@@
aker
lives
rbc
ashi@@
mahindra
mein
serve
ran
phan@@
opportunities
ias
vacancy
stitch
siz@@
bap@@
wage
cil
carol
colum@@
elections
gender
florist
jeffrey
e'@@
sisters
zam@@
thread
cargo
escent
symptom
opera
carburetor
potatoes
bullying
horror
peace
rap
colom@@
eze
desh
philipp@@
ros
apparel
apprent@@
satur@@
coven@@
charity
methodist
terr@@
teach
110@@
140
ix@@
crossing
joy@@
trap
proc@@
neum@@
lyric
yards
koo@@
bonds
climate
mt@@
gib@@
220
marvel
sleep@@
abra@@
fergus@@
regal
meat@@
pers
valent
affairs
watt
specialist
owned
meanings
delet@@
bren@@
furnace
esburg
mug
kingston
ique
titles
music@@
refer@@
holding
brew@@
jec@@
apollo
bd
pnc
brunswick
athi
cruz
friendship
yak@@
muff@@
people@@
ancestry
billing
salmon
leban@@
brakes
ibm
export
jill
sings
rocket
medieval
juven@@
1800
alist
jb
sys
pvt
dha@@
ishing
workshop
trump@@
lux@@
udes
acres
ancing
landscap@@
impor@@
joe's
millenni@@
diary
quet
fact
republic@@
coins
illegal
expedia
shaw@@
turtle
bble
knowledge
insulation
cust@@
isn't
elf
ury
203
discus@@
infec@@
rows
vitam@@
bn
stap@@
instruc@@
drag@@
kumar
vr@@
dar
tle@@
transformers
denti@@
solo
cry
land'
baby@@
leaders
fo
tox@@
egyp@@
organizations
warr@@
leigh
motorcycles
translator
hurt
servers
pincode
autocad
ratio
returns
awesome
sandwich
puzzles
wake
initi@@
thrones
lounge
ruby
carpen@@
describe
cooler
tera
4s
sean
antenna
vp
gos
static
thum@@
trek
radioshack
joseph@@
terrace
1800@@
130@@
robinson
timeline
psy
nickelo@@
aca
aus
dir@@
rivi@@
table@@
arabic
det
accor@@
taken
balloon
triangle
beginning
i'
ele@@
121
framework
belle@@
lineup
g'
bush@@
wilmington
take@@
70s
rade
alternative
guides
processing
yacht
jual
sleeve
glu@@
valentine's
kum@@
bot@@
sandals
decoration
yeh
ible
scul@@
violence
debt
basket
usa@@
src
thermostat
fans
dynamics
steakhouse
anz
leis@@
essential
prospec@@
dillard's
isle
given
universities
tual@@
inten@@
symp@@
democr@@
cay@@
disci@@
cue
twilight
strap
anist@@
tomor@@
sq
anger
pois@@
prevention
safari
holly
believe
cigar@@
people's
facilities
ird
temp
winners
itz
signin
complaints
archit@@
emia
lob@@
bj@@
slim
skins
coli
hiring
mp3@@
tuc@@
link@@
jaz@@
itute
lopez
dangerous
railroad
rural
flyer
murphy
hdmi
northeast
acceler@@
suspension
ction
enty
seal@@
workforce
ymca
grain
providence
refu@@
saints
hearts
whirlpool
released
uba
grammar
tism
feb
metall@@
nati@@
let's
necklace
monica
daugh@@
mla
instein
kayak
airtel
marin@@
rex
115
contin@@
fixed
saudi
plas@@
pant@@
wc
double@@
ethiop@@
helmet
jupiter
pediatric
attor@@
vermont
qu
onics
engine@@
volcano
520
sym@@
109
piz@@
pond
bees
eb
pieces
een
blogs
above
chant
crisis
prec@@
confl@@
promotion
stub@@
fen@@
fs@@
fanfiction
expen@@
mama
asheville
chattanooga
larry
affili@@
keep@@
charges
bage
sut@@
235
thesaurus
tham
mg@@
alog
bine
tobacco
ert
transfer@@
cca
pointe
roberts
dressing
comments
evening
pride
fever
cv
layer
tiffany
brass
arc
processor
illy
quad
cm@@
appear@@
strategies
fur
eb@@
bling
minaj
sioux
hydraul@@
htm
dex
cules
marion
enne
requirement
alice
pills
ation'
enton
dup@@
kissing
moon@@
wait
bharat
hate
epic
boarding
squad
kindergarten
sounds
steam@@
enh@@
pren@@
mins
jail@@
manor
610
compact
bankofamerica
configur@@
ect@@
personality
eau
beach@@
erville
ership
gical
1976
zoom
1z@@
dow
jerem@@
505
year@@
2u
beyonce
ross@@
inc@@
krishna
hare
rape
dust
ghana
par
differ@@
colo@@
swar@@
campaign
elder@@
mathemat@@
dor
lig@@
berland
intake
personal@@
mca@@
bronx
tn@@
judg@@
rob
manufac@@
importance
restric@@
craftsman
compatible
hacked
legends
commonwealth
subway
porter
hipp@@
vince
diamon@@
eries
parties
not@@
premiere
beam
bass@@
fry
pillar
broadcast
ort
seas
shade
michaels
nsville
ilation
positions
zes
amber
estop
tona
mete@@
artists
programming
tutor@@
prescription
antha
journey
copy@@
crush
recharge
photograph@@
bride
hum
sofa
notific@@
chips
206
hotmail'
weebly
tales
trucking
united@@
aadhaar
literature
kind@@
cooper@@
sos
hartford
street@@
awar@@
unci@@
poten@@
brooks
concerts
malaysian
je
pige@@
diana
bobby
fallout
expensive
adventures
alogy
chrome@@
pier
concer@@
picks
acts
entre@@
fibro@@
talk@@
601
ansing
cot@@
tik
sust@@
illustr@@
battlefield
oliver
graduation
foreclosure
barcelona
word@@
jim@@
dad@@
henderson
input
venice
stereo
camaro
lp
counselling
documentary
licensing
allergy
conven@@
brien
coding
hospital@@
duce
abbrevi@@
dev
ence@@
facility
bachelor
19th
feeling
liqu@@
smile
eo@@
flies
skel@@
ager
revol@@
rated
dder
instal@@
pete
phillips
midland
odys@@
xville
brooke
crow@@
aking
individual
diver@@
luther@@
berlin
neighborhood
crimin@@
mall@@
childhood
unt
dark@@
measure
surprise
full@@
bracelet
peria
bullet@@
peoria
stack
9th
udge
netbanking
bite
spel@@
palmer
yelp
ools
formed
twit@@
ottery
msnbc
dome
vid
simon
challeng@@
blocks
pike
garland
failed
aquarium
como
accommod@@
cartridge
calendars
ddy's
britain
megashare
lian
matic
wildlife
05@@
inking
tyre
sad@@
tens
atta@@
celebration
coaching
alie
fashi@@
logos
sushi
beac@@
mcgra@@
psc
bsnl
hut@@
hickory
rumours
valu@@
aps
keller
frederick@@
sue
determine
ugs
sem@@
alzheimer's
magazines
sizes
campground
patio
vice
ninten@@
judge
m'
gho@@
hydro
bangla
his@@
gon
fraser
scenes
logan
detail
winston
bigpond
tokyo
customs
squar@@
ardo
vens
zan@@
evans
hen
compla@@
lacrosse
crock@@
gazette
ous@@
centres
lawn@@
fiel@@
in's
vine@@
rosa
rage
trad@@
activation
fu
shine
bomb
rh@@
zen
hell
thunder
dre
methods
poor
boom
tible
tabs
micha@@
publi@@
auga
compensation
hear
plain
rockford
seasons
scam
echo
nj@@
wai@@
tering
bourne
wellington
kell@@
lifting
turner
stove
katie
isa@@
rox@@
lid
hosp@@
forced
transform@@
cv@@
mee
armor
coil
anoke
anton
fold
dn
lir@@
dak
113@@
caff@@
omega
writ@@
310
resist@@
atlas
embroidery
tuition
anic
journ@@
compared
rand
ott
ilyn
oi
selena
terror@@
bey
worlds
themes
zel
kad@@
oned
quran
wend@@
vanilla
kirk@@
bloc@@
sep
tual
aldi
ectomy
make@@
fraud
unable
fton
jax
smouth
exit
buzz@@
former
citrix
samples
dless
appliance
buses
yaar
sq@@
naz@@
horoscope
kut@@
thi
albums
shakespeare
selection
theft
egar
ima@@
shin@@
nest
jama@@
ivy
vern
alexandria
ggy
nr
nottingham
quizlet
bernar@@
optical
som
plication
crock
amtra@@
die@@
ney's
254
keeper
defence
apts
concord
shelby
1988
tum
mahar@@
wali
prost@@
reser@@
omi
linger@@
nak@@
six@@
pak@@
stuck
consi@@
statements
tall@@
argent@@
patrick's
reddit
feedback
crane
successful
jaguar
mining
mahjong
lou
slots
electricity
muhammad
py
berkel@@
porcelain
117
behaviour
swiss
evaluation
knitting
jewish
scopy
margaret
cert
geographic
mansfield
treme
scheme
das@@
jungle
sal
expo
sciences
jelly
bracket
reyn@@
nuts
galvest@@
junk
observ@@
lander
specific
commod@@
pix
amendment
xic@@
comfor@@
disorders
augu@@
nordstrom
improvement
inger@@
fireplace
lawy@@
ced@@
pornhub
1950@@
mahjon@@
ahmedabad
festi@@
exams
oni
mark@@
jp
03@@
legisl@@
shal@@
cele@@
seas@@
diagrams
introduction
hog
unity
solve
ail
argos
lug@@
za@@
logistics
centurylink
chic
rims
tubes
idad
round@@
olk
refle@@
rah@@
talla@@
distributors
gates
push
dalam
bahasa
1984
hobby
boobs
sur
inver@@
resol@@
colony
patrol
ornam@@
5s
jit@@
engagement
churches
drake
nicho@@
policies
races
recording
sell@@
alco@@
comics
centre@@
dealer@@
scotia
312
berries
thur@@
rom@@
akron
discover@@
recru@@
cals
planes
nonprofit
pedia'
bonus
ames
fortune
butt
honors
column
stuart
dennis
logists
elig@@
diarrhea
ellen
infant
cavali@@
dvds
deng@@
qui
anchor
signific@@
mans
womens
kok
stuffed
hh@@
wagon
tent
wizard
cad
hy
sight
simulator
summer@@
secondhand
enna
rehabil@@
citiz@@
dynamic
fafsa
suv
penney
cliff
griffin
tags
utch
maur@@
miniature
eda
rihanna
cabins
zap@@
nton
td@@
nerve
membership
activ@@
great@@
commer@@
wrangler
infinity
rot
akan
contoh
resident
lad@@
graham
martha
wonder
emerald
manit@@
reliance
kal
emily
speak
angle
stin
isy
oda
saying
waco
ticketmaster
spread
barcla@@
aming
doll@@
212
fitz@@
instant
epo@@
preston
seen
benjam@@
bloomingdale's
grille
addresses
brazilian
twins
since
inmate
cinnam@@
cms
shoo@@
mance
eling
ference
target@@
rents
vba
ews
canton
wester@@
depen@@
ome
purch@@
ffer@@
kings@@
lump@@
highland
hamp@@
marri@@
pup@@
kol@@
schol@@
diam@@
organiz@@
reti@@
coco@@
jong
das
teach@@
counsel@@
inspec@@
craf@@
stol
todd@@
tomat@@
swi@@
tails
umes
twin@@
wish
fone
stern
nal
map@@
chu@@
enni@@
pod
shared
floo@@
umin@@
blog@@
langu@@
izon
ance@@
friend@@
virgin@@
ises
''@@
reci@@
fli@@
tai
uro
lett@@
zil@@
pakist@@
perio@@
tific@@
chet
suppli@@
hou@@
buil@@
griff@@
abo@@
haha@@
ballo@@
hid@@
corpor@@
ond
educ@@
anton@@
ysis
theast
bec
pli@@
techni@@
bachel@@
share@@
tropic@@
diction@@
sor
mour
athan
uring
come@@
your@@
plum@@
coff@@
rics
certific@@
docum@@
childr@@
adver@@
injec@@
bey@@
ints
premi@@
defin@@
ashe@@
forec@@
cine@@
holi@@
pus@@
tribu@@
ench
secur@@
agre@@
wau@@
fram@@
hart@@
resses
isra@@
depres@@
pleas@@
gu
sert
brigh@@
inet
raft
compati@@
transl@@
fault
ool@@
ingo
kenne@@
dney
sonville
rif@@
cycles
indones@@
now@@
fed@@
questi@@
migr@@
intel@@
nee
sheri@@
rabb@@
ware@@
urn@@
arth@@
explor@@
york@@
quot@@
dian
horo@@
pose
're
tory
week@@
ple
caster
program@@
tomy
gujar@@
lips
stration
popul@@
cription
kitch@@
exec@@
wiz@@
won@@
zz
bracel@@
strateg@@
earthqu@@
rest@@
alb@@
intro@@
lish
peg
tings
chall@@
iana
bian
indian@@
icles
bucks
aro
consum@@
desk@@
in'
speak@@
found@@
elizab@@
agen@@
distric@@
champ@@
alexand@@
dak@@
descri@@
alban@@
rena@@
jav@@
onto
sian
hanna
vey
dai
truc@@
ults
snl
trail@@
louis@@
inson
fore@@
cloth@@
burgh
pati@@
yahoo@@
herit@@
orders
character@@
exter@@
figh@@
meg@@
aad@@
airs
compar@@
fif@@
mum@@
edu@@
ield
depart@@
aur@@
toms
ense
edmon@@
pump@@
neck@@
ycle
rim
liver@@
expl@@
kup
shoul@@
kiss@@
ohi@@
nis
ney@@
verage
lincol@@
loy@@
compan@@
cryst@@
dete@@
tists
x4
llll@@
anced
quer@@
hig@@
ril
point@@
canadi@@
seat@@
techno@@
lau@@
univers@@
favor@@
divor@@
cial
secon@@
itution
mortg@@
perman@@
metho@@
alab@@
lowing
tah
ento
cling
glas@@
uto
isco
teries
arta
str
oper
matthe@@
curr@@
wom@@
esis
zzzz@@
musli@@
rement
cript
itary
nash@@
holic
kent@@
rele@@
visor
simul@@
jewell@@
does@@
legen@@
octo@@
dered
stat
wealth
ail@@
rison
ine's
afr@@
margar@@
geor@@
volcan@@
cies
assem@@
jour@@
volunte@@
loud
figur@@
kata
alam
capac@@
juni@@
oly@@
cris@@
shepher@@
adop@@
day's
ug
syst@@
stain@@
alth
achi@@
sit
lins
yel@@
anal@@
aser
ooth
immigr@@
niss@@
orth@@
stati@@
nordstro@@
tance
lina
ergy
sna@@
unit@@
oria
aris
asy
effec@@
bedro@@
skir@@
pn
porn@@
myr@@
ema@@
roe
catalo@@
kini
poke@@
sung
process@@
sche@@
proper@@
pitts@@
controll@@
carav@@
vada
glass@@
stric@@
avail@@
lit
gry
oce@@
carto@@
lead@@
success@@
matt@@
hamster
coma
reilly
feed@@
opportun@@
pha@@
ois
coach@@
insur@@
present@@
econ@@
advent@@
pau@@
battle@@
dome@@
zilla
kane
professi@@
oreg@@
evalu@@
dynam@@
aha
lowe@@
cuit
tournam@@
vil
zom@@
alzheim@@
ral@@
uters
jeff@@
tball
esome
fic
phia
struction
vd
broo@@
appra@@
cartri@@
bour
entr@@
toyo@@
coul@@
oring
transpor@@
that@@
ilities
chev@@
neg@@
irie
wholes@@
sole
omy
straw@@
ym@@
charle@@
viet@@
patter@@
yon
gency
oming
gym@@
pret@@
aquari@@
architec@@
sylvania
ia's
folk
aub@@
disco@@
troub@@
bab
jap@@
alo
cabel@@
chool
diplo@@
lawr@@
walk@@
smi@@
chocol@@
issu@@
moder@@
turns
base@@
pill@@
mathe@@
illu@@
galore
troubleshoo@@
member@@
tiff@@
blon@@
bie@@
wher@@
ebay@@
ague
ules
toil@@
gradu@@
pengu@@
rams
vacu@@
stuff@@
dison
queens@@
netfli@@
deter@@
know@@
vention
mated
anni@@
leno@@
illin@@
scienti@@
wich@@
solit@@
atlan@@
polic@@
champion@@
child@@
icity
ledge
spid@@
georg@@
erra
roblo@@
homa
ishi
relation@@
hali@@
ply@@
tamp@@
heav@@
ontari@@
tumbl@@
perfor@@
qur@@
idel@@
jeffer@@
aug@@
chr@@
treat@@
rix
jury
nment
hick@@
cht
nord@@
ghan
linke@@
common@@
occ@@
sched@@
youtub@@
tem@@
aide
requi@@
embroid@@
califor@@
uter
maha
charlo@@
itun@@
fres@@
finan@@
lying
gala@@
crete
rati@@
industri@@
recruit@@
hurric@@
admini@@
staff@@
amend@@
dem@@
blooming@@
pher
eleph@@
quart@@
krish@@
century@@
anted
jess@@
muse@@
jak@@
neighbor@@
foli@@
paign
ticket@@
gate@@
greens
citi@@
dist
fay@@
pher@@
conne@@
ims
knit@@
bris@@
ason
michig@@
kardashi@@
appar@@
hatt@@
facebook@@
xn@@
lywood
yle
hoc@@
dson
anch@@
iture
wou@@
ror
voda@@
barbar@@
edin@@
emplo@@
heim@@
houst@@
traff@@
bly
anci@@
swag@@
priv@@
ips
telev@@
abi
jel@@
less@@
ission
lant@@
camer@@
singap@@
donal@@
sus
vement
elem@@
ici
brisban@@
commen@@
hol
suic@@
iter
shakespe@@
gymna@@
carib@@
juana
cond@@
templ@@
indivi@@
winni@@
ceme@@
loo
hender@@
motive
nific@@
urus
mean@@
n't
prise
tist
percent@@
fail@@
sche
yout
abled
veland
cres@@
phoen@@
ingredi@@
agement
ike@@
glut@@
ver's
tattoo@@
fath@@
diag@@
ily@@
oux
religi@@
wrang@@
ened
beauti@@
fidel@@
indu@@
toh
kyo
hammad
timel@@
aware
exerc@@
unge
reco@@
mercur@@
centur@@
volun@@
hamil@@
nuc@@
equip@@
uly
satell@@
frame@@
slist
agram
ications
vas
japan@@
chole@@
studi@@
banko@@
sains@@
nee@@
spider@@
oso@@
tranet
mexic@@
environ@@
grow@@
restaur@@
stewar@@
tsman
hyun@@
diabet@@
kann@@
cylin@@
boar@@
parad@@
ctc
calend@@
iring
solu@@
datab@@
eliz@@
diar@@
entertain@@
kiji@@
tempor@@
krup@@
atlant@@
benef@@
javas@@
corv@@
register@@
ease
whir@@
legis@@
baske@@
christo@@
ppi
execu@@
saras@@
montre@@
doug@@
toys@@
guidel@@
dies@@
grocer@@
chevro@@
mitch@@
worl@@
finity
certi@@
indepen@@
bai
lout
exha@@
ecraft
tole@@
albu@@
caa
fayette
sylla@@
jup@@
ariz@@
amoun@@
reme
annivers@@
gain@@
airy
ember
ahmed@@
dino@@
gus@@
tique
asonic
carni@@
safar@@
volkswag@@
aru
rajast@@
jagu@@
pez
marath@@
raja@@
enterpr@@
techn@@
thou
bure@@
hunt@@
employe@@
hawai@@
waukee
ard's
kindergar@@
ponti@@
ucky
minnes@@
timate
prent@@
drome
bankof@@
tayl@@
oke
otta@@
mile@@
enge
rale@@
kelo@@
bloomingdal@@
nott@@
fac
llo
eval
wells@@
vancou@@
symbo@@
tuk
depo@@
marke@@
sylvan@@
gosp@@
ateur
nai
degre@@
braz@@
ffield
kans@@
pione@@
aho
ween
pregn@@
envir@@
rick's
janu@@
mach
chrys@@
warri@@
kara@@
beha@@
outh
tou
iop@@
brazil@@
resour@@
aning
bankrup@@
cincin@@
wiscon@@
ancies
proj@@
chel
ette@@
theat@@
memp@@
casser@@
ength
tobac@@
fore
alph@@
second@@
erous
steak@@
jose@@
compens@@
thomp@@
surger@@
haar
europe@@
tripad@@
urn
lacro@@
heli@@
kinder@@
puer@@
staur@@
sou
puzz@@
detro@@
niag@@
eces
balti@@
hasa
manufactur@@
advant@@
swick
tries
proble@@
mitsub@@
ilion
diseas@@
punj@@
bangl@@
gow
hind
carbure@@
dou
suzu@@
minne@@
mou
rhea
istics
aland
eclip@@
synony@@
kore@@
holes@@
austr@@
trib@@
thail@@
veh@@
proced@@
lando
newar@@
hallo@@
seaf@@
bou
tware
hydra@@
orts
progr@@
strum@@
savan@@
modu@@
asons
accel@@
dential
kati@@
porcel@@
logies
episo@@
telug@@
htt@@
ashtra
magnet@@
jenni@@
winds@@
thesaur@@
sapp
twil@@
reha@@
okla@@
madri@@
roid
bluet@@
ific
encer
anato@@
missour@@
apart@@
birm@@
essenti@@
lands@@
faf@@
rapi@@
montgomer@@
gir
arthr@@
potat@@
cadill@@
troubles@@
nebr@@
mississi@@
mours
whirl@@
barcel@@
istry
issance
schedu@@
mcdonal@@
tennes@@
berra
alz@@
hawa@@
chri@@
cocon@@
philadel@@
aska
dashi@@
monit@@
warran@@
platin@@
sacram@@
mail'
hyder@@
curricul@@
toshi@@
itals
month@@
whitep@@
champi@@
cess
liqu
ccer
magaz@@
ricul@@
egy@@
kawas@@
inets
spap@@
merced@@
icip@@
massa@@
pupp@@
ashare
vamp@@
alumin@@
radiosh@@
afire
setts
gomer@@
septem@@
bankrupt@@
karnat@@
volk@@
gether
refri@@
abbre@@
sponge@@
aqu
thern
relig@@
manhatt@@
sterol
distri@@
volley@@
mahin@@
leans
thanks@@
shakes@@
albuquer@@
newspap@@
chattanoo@@
chero@@
ashion
connectic@@
syrac@@
massachu@@
lauder@@
sery
peop@@
coun
edures
youtub
wirel@@
mainten@@
ample
bassy
obitu@@
again@@
apolis
require@@
arrest@@
fieds
nutr
febru@@
embro@@
nati
